#ifndef __EMTF_HLSLIB_NNET_WEIGHTS_H__
#define __EMTF_HLSLIB_NNET_WEIGHTS_H__



constexpr int num_nns = 2;
constexpr int num_layers = 5;
constexpr int num_nodes[num_layers] = {40, 28, 24, 16, 1};

// Weights and Biases for each layer share the same type
typedef ap_fixed<11, 1> weights_l0_t; 
typedef ap_fixed<10, 4> weights_l1_t; 
typedef ap_fixed<10, 4> weights_l2_t; 
typedef ap_fixed<10, 4> weights_l3_t; 
typedef ap_fixed<12, 3> weights_l4_t; 

const weights_l0_t weights_layer_0[2][40] = {
    { 0.00390625, 0.009765625, 0.072265625, 0.0166015625, 0.01171875, 0.0087890625, 0.0478515625, 0.0146484375, 0.0107421875, 0.0029296875, 0.0419921875, 0.00390625, 0.4619140625, 0.32421875, 0.822265625, 0.9873046875, 0.9677734375, 0.23046875, 0.2822265625, 0.4404296875, 0.4794921875, 0.3203125, 0.5126953125, 0.349609375, 0.1884765625, 0.15234375, 0.4091796875, 0.3681640625, 0.3583984375, 0.052734375, 0.1533203125, 0.1533203125, 0.1533203125, 0.1533203125, 0.1533203125, 0.158203125, 0.0009765625, 0.0244140625, 0.0146484375, 0 },
    { 0, 0, 0, 0, 0, 0, 0, 0, 0, 0, 0, 0, 0, 0, 0, 0, 0, 0, 0, 0, 0, 0, 0, 0, 0, 0, 0, 0, 0, 0, 0, 0, 0, 0, 0, 0, 0, 0, 0, 0 }
};


const weights_l1_t weights_layer_1[2][40*28] = {
    { 1.3125, 1.859375, -0.8125, 1.546875, 0.265625, 0, 0, 0.5625, -0.28125, -0.6875, 0.5625, 1.078125, 0.0625, 0.015625, 0, 0, 0, 0.109375, 0.046875, 0, 0, 0.015625, 0, 0, 0, 0.765625, -0.15625, -0.109375, -0.046875, 2.390625, -0.515625, -0.765625, -2.125, -0.5, 0, -0.046875, 0, 0.125, -2.609375, -0.140625, 0.296875, 0, -0.375, 0.765625, 0.1875, 0.1875, 0.296875, 0.21875, 0, -0.078125, 0.234375, 0.65625, -0.203125, -0.125, 0.09375, 0, 0, -0.15625, 0, 0, 0, 0, 0, -0.078125, 0.1875, 0.265625, -0.21875, -0.140625, -0.109375, -0.0625, 0, 0.3125, 1.25, 0.375, 0.046875, 0.125, 0, 0.125, 0.890625, 0, 1.59375, 0.078125, -0.109375, 0, 0.125, -0.203125, -0.171875, 0, 0, -3.953125, 0.265625, 2.03125, 0.078125, 0.296875, -0.0625, -0.046875, 0, 0.296875, 0, 0, 0, 0, 0, 0, -0.109375, -0.25, 0, 0, 0, 0.703125, -0.1875, -0.265625, 0.5, 0.0625, -0.203125, -1.03125, 0, -0.296875, -1.015625, -0.109375, 0.125, 0.140625, 0, 0.09375, 0, 0.0625, 0, -0.0625, 0, 0.171875, 0.046875, 0.546875, 0.03125, -0.109375, 0.0625, 0, 0, 0.09375, -0.046875, 0, 0, 0, 0, -0.03125, -0.09375, -0.234375, 0.0625, 0.046875, 0.046875, -0.140625, 0.15625, 0, 0.15625, 0.09375, 0.078125, -0.125, 0, 0.390625, 0.90625, -0.03125, 0.0625, 0.265625, 0.078125, -2.0625, 2.75, 0, 0, 0.03125, -0.296875, -0.109375, 0.046875, 0.578125, 0.015625, 0.015625, 0, 0, 0, 0.078125, -0.0625, 0, 0, 0, 0, 0, 0.203125, 0.265625, 0, -0.234375, -0.09375, 0.75, -0.265625, -0.203125, -0.375, -2.375, 2.875, -0.40625, 0, -0.328125, 1.3125, 0.21875, 0.0625, 0.390625, -0.140625, -0.546875, 0.234375, 0.234375, 0.0625, -0.234375, 0, 0, 0.125, 0.765625, 0, 0.09375, 0, 0, 0, -0.046875, -0.015625, -0.0625, 0, 0, -0.03125, 0, 0.140625, 0.84375, -0.046875, -0.078125, 0, 2.34375, 0.28125, -0.34375, 0.109375, -0.34375, -0.75, 0.734375, 0, 0.15625, -1.609375, 0, -0.109375, -0.03125, 0.03125, -0.234375, -0.421875, 0, 0.546875, -0.171875, 0.15625, 0, 0, -0.109375, 0, 0, 0.09375, 0, 0, -0.09375, -0.21875, 0, 0, 0.03125, 0, 0.109375, 0.0625, 0.078125, -0.09375, -0.015625, 0, -0.390625, -0.375, 0.1875, -0.390625, 0.5, 0.40625, 0.203125, 0, 0.234375, 1.359375, 0.046875, -0.296875, 0.21875, 0.0625, -0.8125, -0.578125, 0.28125, 0.25, -0.421875, 1.3125, -0.171875, -0.015625, 0.96875, -0.15625, 0, 0, 0, 0, 0.03125, -0.125, 0, 0.109375, 0, 0, 0, 0.09375, 0.375, 0, 0, 0, 0.890625, 0, 0.453125, -0.296875, 0.296875, 0.0625, 0.171875, 0, -0.140625, 3.59375, 0, 0.265625, 0.078125, 0, -0.296875, 0.109375, 0.21875, 0.109375, 0.109375, 0.046875, 0.140625, -0.09375, 0.796875, 0.0625, 0.0625, -0.078125, 0, 0, 0.15625, 0, 0, 0, 0.03125, 0, 0, 0.046875, 0, -0.109375, -0.0625, -0.078125, 0, 0, 0.609375, -0.234375, -0.125, -0.21875, -0.078125, 0, 0.109375, -1.015625, 0.0625, -0.109375, 0.15625, -0.03125, 0, -0.03125, -0.0625, 0.109375, -0.171875, -0.109375, 0, 0, 0, -0.046875, 0.046875, 0, 0, 0, 0.21875, -0.359375, 0, 0.03125, 0.046875, 0.03125, 0, 0.109375, 0.1875, 0.046875, -0.09375, 0, -0.234375, -0.125, -0.359375, -0.203125, -0.78125, 0.59375, -0.03125, 0, -0.3125, 0.671875, 0, 3.28125, 1.9375, 0, -0.234375, -0.09375, -2.984375, 0.625, 0, 0, -4.078125, 0.15625, -1.09375, 0.046875, -1.75, 0, 0, 0.046875, -0.015625, 0, 0.0625, 0, 0, 0, -0.265625, -0.15625, 0.59375, 0, 0, 0, -6.453125, 0.015625, -5.3125, 0.453125, 0.265625, 0.109375, 1.71875, 0, -0.171875, -0.890625, -0.203125, 0.203125, 0.265625, 0, -0.078125, 0.03125, -0.046875, -0.046875, 0.03125, 0.046875, 0.234375, -0.0625, 0.25, -0.015625, 0.03125, -0.015625, 0, 0, -0.015625, 0, 0, 0, 0, 0, 0, -0.015625, -0.1875, 0.03125, 0.03125, 0, -0.28125, -0.015625, 0.078125, 0, 0.046875, -0.09375, 0, 0, -0.15625, -0.328125, 0.015625, 0.671875, -1.21875, 0, 0.109375, 0.078125, 0.875, -0.171875, 0, 0.0625, 0.6875, -0.09375, 0.890625, 0, -0.21875, 0.03125, 0, 0, -0.015625, 0, 0, 0, -0.015625, 0, -0.03125, -0.046875, -0.15625, 0.03125, 0, 0, 0.890625, -0.25, -2.328125, -0.046875, -0.046875, 0, 0.234375, 0, -0.296875, -0.78125, -0.109375, 0.203125, 0.03125, 0, 0.515625, -0.59375, -0.0625, -0.234375, 0.28125, 1.453125, 0.046875, -0.09375, 0.15625, 0, 0, 0, 0, 0, 0, 0, -0.03125, 0.09375, 0, 0, 0, 0.078125, -0.21875, 0, -0.171875, -0.125, 0.125, 0.234375, -0.296875, -0.09375, -0.421875, 2.65625, 0.125, 0, 0.328125, -0.453125, 0.09375, -0.140625, 0.171875, 0.078125, -0.09375, -0.59375, 0.203125, 0.125, -0.25, -0.421875, 0.015625, 0.234375, -0.390625, -0.046875, 0, 0, 0, 0, 0, 0.078125, 0, 0, 0, -0.03125, 0, 0, 0.625, -0.015625, 0, 0.0625, -0.234375, -0.140625, -0.1875, -0.140625, -0.046875, -0.265625, 0.15625, 0, 0, 0.71875, -0.03125, 0.21875, 0.65625, 0, 0.109375, 0.15625, -0.15625, 0, 0, 0.0625, -0.140625, 0.296875, 0, 0.140625, 0, 0, 0, 0.0625, -0.21875, 0.1875, 0, 0, 0, 0.4375, -0.328125, 0.328125, 0.734375, -0.34375, -0.34375, -0.3125, 0.328125, 0.578125, 0.46875, 0.859375, 1.578125, 0.84375, 0.09375, 0, -0.625, 1.015625, 0, 0.125, 0.296875, -0.015625, 0, 0, 0.09375, 0.078125, 0, 0.046875, -0.140625, 0, -0.03125, 0.09375, 0.3125, 0.015625, -0.015625, -0.0625, -0.609375, 0.609375, -0.015625, 0, 0.03125, 0, 0.03125, 0, -0.421875, 0, 0, 0, 0.078125, 0, -2.25, -0.015625, -0.015625, 0.078125, -0.078125, 0, 2.1875, -0.34375, 0.03125, 0.453125, -0.546875, -0.078125, 0.484375, 0.25, 0.890625, 0, 0.09375, 0, -0.421875, 0.109375, -1.203125, -0.078125, -0.140625, 0.0625, 0, 0, -0.171875, 0, 0.03125, 0, 0.015625, 0.046875, -0.078125, 0, -0.484375, 0, 0, 0, -1.296875, 0.234375, 1.28125, 0, -0.140625, 0.328125, -0.40625, 0, -0.625, 3.28125, 0.09375, 0.796875, -0.0625, 0.03125, -0.046875, 0, 0.046875, 0, 0.0625, 0, -1.484375, 0, 0.34375, 0.03125, -0.046875, 0, 0, -0.03125, -0.078125, 0.03125, 0, -0.03125, 0, -0.046875, 0.296875, -0.046875, -0.09375, -0.046875, 0, 0, 0, 1.5, 0.0625, -0.25, -0.265625, -0.21875, 0.984375, 0, -1.140625, -0.1875, -0.046875, 0.59375, 0.34375, 0, 0.921875, -0.078125, 0.671875, -0.1875, -0.328125, 0.09375, -0.28125, -0.171875, -0.21875, 0.046875, 0.03125, 0, 0, 0, -0.140625, 0.015625, 0, 0, 0, 0, 0.03125, 0, 0, 0.3125, 0, 0.140625, 0.1875, -0.015625, 0.296875, 0.828125, -0.65625, -0.125, 0.5625, 0, -0.5625, 2.609375, 0, 0, -1.203125, 0, 0.140625, 0.140625, -0.25, -0.09375, 0.09375, 0, 0, 0, -2.453125, 0.046875, 0.109375, -0.03125, 0, 0, 0.3125, 0.09375, -0.078125, -0.046875, -0.046875, -0.03125, 0, -0.0625, -0.28125, 0, 0, -0.046875, -1.703125, -0.484375, 3, -0.0625, -0.28125, -0.53125, 0.140625, 0, 0, -1.46875, 0.171875, -0.046875, -0.25, 0, 0.171875, 0.046875, 0.09375, 0.5625, 0.203125, 0.0625, -0.375, -0.0625, 0, 0, -0.015625, 0.109375, 0, -0.0625, 0, 0.03125, 0, 0, 0, 0, 0.078125, 0.171875, 0.109375, -0.078125, -0.09375, -0.109375, 0.078125, -0.09375, -0.484375, 0, 0.453125, -0.40625, 0, 0, 0.109375, 0.796875, -0.0625, -0.90625, -0.859375, 0.015625, 0.1875, -0.0625, 0.1875, 0.125, -0.015625, -0.015625, -0.328125, -0.046875, 0.53125, 0, 0.03125, 0, 0, 0, -0.03125, 0, 0, 0, -0.015625, -0.015625, 0, 0.0625, 0.34375, -0.046875, -0.046875, 0, -0.953125, 0.03125, 0, -0.0625, -0.140625, -0.03125, 0.34375, 0, 0, 0.21875, -0.109375, -0.46875, 0, 0, 0.09375, -0.1875, -0.296875, -0.09375, 0.09375, 0, -0.1875, -0.140625, 0.921875, 0.171875, 0.21875, -0.078125, 0, 0, 0, 0, 0, 0, -0.03125, 0, -0.203125, 0.09375, -0.953125, 0, -0.03125, 0, 0, -0.53125, 1.6875, -0.21875, -0.265625, -0.203125, -2.484375, 0, 0.015625, -1.53125, 0.046875, 0.671875, 0.8125, 0.328125, 0.5, 0, 0.53125, -0.921875, 0.15625, 0.09375, -0.453125, -0.796875, 0, -0.109375, 0, -0.390625, 0, 0.1875, 0.546875, -0.78125, 0, 0, 0.015625, -0.40625, 0, 0.09375, 0, -0.265625, -0.140625, -0.125, 0.28125, 0, -0.078125, -0.90625, -0.734375, 0, 0.34375, 0, 0.203125, -1.5625, 0, 0.359375, -1.109375, 0, 0.015625, -0.0625, 0.4375, 0.078125, -0.0625, 0, -0.265625, 0.078125, -0.359375, -0.046875, 0, 0, 0, 0, -0.078125, 0, 0, 0.03125, 0.03125, 0, 0, -0.109375, 0.046875, 0.03125, 0.03125, 0.015625, 0.390625, 0, 0.28125, 0.40625, 0.0625, -0.125, -3.46875, 0, -0.65625, 0.53125, 0, 0, -0.359375, 0, 0.171875, 0, 0, -0.046875, 0, 0.03125, -0.09375, 0.078125, -0.140625, -0.546875, -1.171875, -0.125, 0.171875, 0.34375, -0.0625, -0.5, 0.109375, 0.09375, -0.078125, 0, -0.265625, -0.015625, -0.390625, 0, 0, 0, -0.1875, 0.15625, -0.71875, 0.140625, 0, 0, -0.125, 0, 1.15625, 1.328125, 0.046875, -0.09375, -0.0625, 0.046875, 0.046875, -0.046875, 0.09375, 0.0625, -0.03125, 0, 0.859375, -0.046875, 0.96875, 0.03125, -0.140625, 0, -0.015625, 0, -0.03125, -0.0625, 0, 0, 0, 0, 0.03125, -0.046875, -0.03125, 0, 0, 0, -0.625, -1.453125, 0.3125, 0.125, 0, -0.09375, -1.8125, 0, -1.890625, 0.328125, -0.15625 },
    { 1.3125, 1.859375, -0.8125, 1.546875, 0.265625, 0, 0, 0.5625, -0.28125, -0.6875, 0.5625, 1.078125, 0.0625, 0.015625, 0, 0, 0, 0.109375, 0.046875, 0, 0, 0.015625, 0, 0, 0, 0.765625, -0.15625, -0.109375, -0.046875, 2.390625, -0.515625, -0.765625, -2.125, -0.5, 0, -0.046875, 0, 0.125, -2.609375, -0.140625, 0.296875, 0, -0.375, 0.765625, 0.1875, 0.1875, 0.296875, 0.21875, 0, -0.078125, 0.234375, 0.65625, -0.203125, -0.125, 0.09375, 0, 0, -0.15625, 0, 0, 0, 0, 0, -0.078125, 0.1875, 0.265625, -0.21875, -0.140625, -0.109375, -0.0625, 0, 0.3125, 1.25, 0.375, 0.046875, 0.125, 0, 0.125, 0.890625, 0, 1.59375, 0.078125, -0.109375, 0, 0.125, -0.203125, -0.171875, 0, 0, -3.953125, 0.265625, 2.03125, 0.078125, 0.296875, -0.0625, -0.046875, 0, 0.296875, 0, 0, 0, 0, 0, 0, -0.109375, -0.25, 0, 0, 0, 0.703125, -0.1875, -0.265625, 0.5, 0.0625, -0.203125, -1.03125, 0, -0.296875, -1.015625, -0.109375, 0.125, 0.140625, 0, 0.09375, 0, 0.0625, 0, -0.0625, 0, 0.171875, 0.046875, 0.546875, 0.03125, -0.109375, 0.0625, 0, 0, 0.09375, -0.046875, 0, 0, 0, 0, -0.03125, -0.09375, -0.234375, 0.0625, 0.046875, 0.046875, -0.140625, 0.15625, 0, 0.15625, 0.09375, 0.078125, -0.125, 0, 0.390625, 0.90625, -0.03125, 0.0625, 0.265625, 0.078125, -2.0625, 2.75, 0, 0, 0.03125, -0.296875, -0.109375, 0.046875, 0.578125, 0.015625, 0.015625, 0, 0, 0, 0.078125, -0.0625, 0, 0, 0, 0, 0, 0.203125, 0.265625, 0, -0.234375, -0.09375, 0.75, -0.265625, -0.203125, -0.375, -2.375, 2.875, -0.40625, 0, -0.328125, 1.3125, 0.21875, 0.0625, 0.390625, -0.140625, -0.546875, 0.234375, 0.234375, 0.0625, -0.234375, 0, 0, 0.125, 0.765625, 0, 0.09375, 0, 0, 0, -0.046875, -0.015625, -0.0625, 0, 0, -0.03125, 0, 0.140625, 0.84375, -0.046875, -0.078125, 0, 2.34375, 0.28125, -0.34375, 0.109375, -0.34375, -0.75, 0.734375, 0, 0.15625, -1.609375, 0, -0.109375, -0.03125, 0.03125, -0.234375, -0.421875, 0, 0.546875, -0.171875, 0.15625, 0, 0, -0.109375, 0, 0, 0.09375, 0, 0, -0.09375, -0.21875, 0, 0, 0.03125, 0, 0.109375, 0.0625, 0.078125, -0.09375, -0.015625, 0, -0.390625, -0.375, 0.1875, -0.390625, 0.5, 0.40625, 0.203125, 0, 0.234375, 1.359375, 0.046875, -0.296875, 0.21875, 0.0625, -0.8125, -0.578125, 0.28125, 0.25, -0.421875, 1.3125, -0.171875, -0.015625, 0.96875, -0.15625, 0, 0, 0, 0, 0.03125, -0.125, 0, 0.109375, 0, 0, 0, 0.09375, 0.375, 0, 0, 0, 0.890625, 0, 0.453125, -0.296875, 0.296875, 0.0625, 0.171875, 0, -0.140625, 3.59375, 0, 0.265625, 0.078125, 0, -0.296875, 0.109375, 0.21875, 0.109375, 0.109375, 0.046875, 0.140625, -0.09375, 0.796875, 0.0625, 0.0625, -0.078125, 0, 0, 0.15625, 0, 0, 0, 0.03125, 0, 0, 0.046875, 0, -0.109375, -0.0625, -0.078125, 0, 0, 0.609375, -0.234375, -0.125, -0.21875, -0.078125, 0, 0.109375, -1.015625, 0.0625, -0.109375, 0.15625, -0.03125, 0, -0.03125, -0.0625, 0.109375, -0.171875, -0.109375, 0, 0, 0, -0.046875, 0.046875, 0, 0, 0, 0.21875, -0.359375, 0, 0.03125, 0.046875, 0.03125, 0, 0.109375, 0.1875, 0.046875, -0.09375, 0, -0.234375, -0.125, -0.359375, -0.203125, -0.78125, 0.59375, -0.03125, 0, -0.3125, 0.671875, 0, 3.28125, 1.9375, 0, -0.234375, -0.09375, -2.984375, 0.625, 0, 0, -4.078125, 0.15625, -1.09375, 0.046875, -1.75, 0, 0, 0.046875, -0.015625, 0, 0.0625, 0, 0, 0, -0.265625, -0.15625, 0.59375, 0, 0, 0, -6.453125, 0.015625, -5.3125, 0.453125, 0.265625, 0.109375, 1.71875, 0, -0.171875, -0.890625, -0.203125, 0.203125, 0.265625, 0, -0.078125, 0.03125, -0.046875, -0.046875, 0.03125, 0.046875, 0.234375, -0.0625, 0.25, -0.015625, 0.03125, -0.015625, 0, 0, -0.015625, 0, 0, 0, 0, 0, 0, -0.015625, -0.1875, 0.03125, 0.03125, 0, -0.28125, -0.015625, 0.078125, 0, 0.046875, -0.09375, 0, 0, -0.15625, -0.328125, 0.015625, 0.671875, -1.21875, 0, 0.109375, 0.078125, 0.875, -0.171875, 0, 0.0625, 0.6875, -0.09375, 0.890625, 0, -0.21875, 0.03125, 0, 0, -0.015625, 0, 0, 0, -0.015625, 0, -0.03125, -0.046875, -0.15625, 0.03125, 0, 0, 0.890625, -0.25, -2.328125, -0.046875, -0.046875, 0, 0.234375, 0, -0.296875, -0.78125, -0.109375, 0.203125, 0.03125, 0, 0.515625, -0.59375, -0.0625, -0.234375, 0.28125, 1.453125, 0.046875, -0.09375, 0.15625, 0, 0, 0, 0, 0, 0, 0, -0.03125, 0.09375, 0, 0, 0, 0.078125, -0.21875, 0, -0.171875, -0.125, 0.125, 0.234375, -0.296875, -0.09375, -0.421875, 2.65625, 0.125, 0, 0.328125, -0.453125, 0.09375, -0.140625, 0.171875, 0.078125, -0.09375, -0.59375, 0.203125, 0.125, -0.25, -0.421875, 0.015625, 0.234375, -0.390625, -0.046875, 0, 0, 0, 0, 0, 0.078125, 0, 0, 0, -0.03125, 0, 0, 0.625, -0.015625, 0, 0.0625, -0.234375, -0.140625, -0.1875, -0.140625, -0.046875, -0.265625, 0.15625, 0, 0, 0.71875, -0.03125, 0.21875, 0.65625, 0, 0.109375, 0.15625, -0.15625, 0, 0, 0.0625, -0.140625, 0.296875, 0, 0.140625, 0, 0, 0, 0.0625, -0.21875, 0.1875, 0, 0, 0, 0.4375, -0.328125, 0.328125, 0.734375, -0.34375, -0.34375, -0.3125, 0.328125, 0.578125, 0.46875, 0.859375, 1.578125, 0.84375, 0.09375, 0, -0.625, 1.015625, 0, 0.125, 0.296875, -0.015625, 0, 0, 0.09375, 0.078125, 0, 0.046875, -0.140625, 0, -0.03125, 0.09375, 0.3125, 0.015625, -0.015625, -0.0625, -0.609375, 0.609375, -0.015625, 0, 0.03125, 0, 0.03125, 0, -0.421875, 0, 0, 0, 0.078125, 0, -2.25, -0.015625, -0.015625, 0.078125, -0.078125, 0, 2.1875, -0.34375, 0.03125, 0.453125, -0.546875, -0.078125, 0.484375, 0.25, 0.890625, 0, 0.09375, 0, -0.421875, 0.109375, -1.203125, -0.078125, -0.140625, 0.0625, 0, 0, -0.171875, 0, 0.03125, 0, 0.015625, 0.046875, -0.078125, 0, -0.484375, 0, 0, 0, -1.296875, 0.234375, 1.28125, 0, -0.140625, 0.328125, -0.40625, 0, -0.625, 3.28125, 0.09375, 0.796875, -0.0625, 0.03125, -0.046875, 0, 0.046875, 0, 0.0625, 0, -1.484375, 0, 0.34375, 0.03125, -0.046875, 0, 0, -0.03125, -0.078125, 0.03125, 0, -0.03125, 0, -0.046875, 0.296875, -0.046875, -0.09375, -0.046875, 0, 0, 0, 1.5, 0.0625, -0.25, -0.265625, -0.21875, 0.984375, 0, -1.140625, -0.1875, -0.046875, 0.59375, 0.34375, 0, 0.921875, -0.078125, 0.671875, -0.1875, -0.328125, 0.09375, -0.28125, -0.171875, -0.21875, 0.046875, 0.03125, 0, 0, 0, -0.140625, 0.015625, 0, 0, 0, 0, 0.03125, 0, 0, 0.3125, 0, 0.140625, 0.1875, -0.015625, 0.296875, 0.828125, -0.65625, -0.125, 0.5625, 0, -0.5625, 2.609375, 0, 0, -1.203125, 0, 0.140625, 0.140625, -0.25, -0.09375, 0.09375, 0, 0, 0, -2.453125, 0.046875, 0.109375, -0.03125, 0, 0, 0.3125, 0.09375, -0.078125, -0.046875, -0.046875, -0.03125, 0, -0.0625, -0.28125, 0, 0, -0.046875, -1.703125, -0.484375, 3, -0.0625, -0.28125, -0.53125, 0.140625, 0, 0, -1.46875, 0.171875, -0.046875, -0.25, 0, 0.171875, 0.046875, 0.09375, 0.5625, 0.203125, 0.0625, -0.375, -0.0625, 0, 0, -0.015625, 0.109375, 0, -0.0625, 0, 0.03125, 0, 0, 0, 0, 0.078125, 0.171875, 0.109375, -0.078125, -0.09375, -0.109375, 0.078125, -0.09375, -0.484375, 0, 0.453125, -0.40625, 0, 0, 0.109375, 0.796875, -0.0625, -0.90625, -0.859375, 0.015625, 0.1875, -0.0625, 0.1875, 0.125, -0.015625, -0.015625, -0.328125, -0.046875, 0.53125, 0, 0.03125, 0, 0, 0, -0.03125, 0, 0, 0, -0.015625, -0.015625, 0, 0.0625, 0.34375, -0.046875, -0.046875, 0, -0.953125, 0.03125, 0, -0.0625, -0.140625, -0.03125, 0.34375, 0, 0, 0.21875, -0.109375, -0.46875, 0, 0, 0.09375, -0.1875, -0.296875, -0.09375, 0.09375, 0, -0.1875, -0.140625, 0.921875, 0.171875, 0.21875, -0.078125, 0, 0, 0, 0, 0, 0, -0.03125, 0, -0.203125, 0.09375, -0.953125, 0, -0.03125, 0, 0, -0.53125, 1.6875, -0.21875, -0.265625, -0.203125, -2.484375, 0, 0.015625, -1.53125, 0.046875, 0.671875, 0.8125, 0.328125, 0.5, 0, 0.53125, -0.921875, 0.15625, 0.09375, -0.453125, -0.796875, 0, -0.109375, 0, -0.390625, 0, 0.1875, 0.546875, -0.78125, 0, 0, 0.015625, -0.40625, 0, 0.09375, 0, -0.265625, -0.140625, -0.125, 0.28125, 0, -0.078125, -0.90625, -0.734375, 0, 0.34375, 0, 0.203125, -1.5625, 0, 0.359375, -1.109375, 0, 0.015625, -0.0625, 0.4375, 0.078125, -0.0625, 0, -0.265625, 0.078125, -0.359375, -0.046875, 0, 0, 0, 0, -0.078125, 0, 0, 0.03125, 0.03125, 0, 0, -0.109375, 0.046875, 0.03125, 0.03125, 0.015625, 0.390625, 0, 0.28125, 0.40625, 0.0625, -0.125, -3.46875, 0, -0.65625, 0.53125, 0, 0, -0.359375, 0, 0.171875, 0, 0, -0.046875, 0, 0.03125, -0.09375, 0.078125, -0.140625, -0.546875, -1.171875, -0.125, 0.171875, 0.34375, -0.0625, -0.5, 0.109375, 0.09375, -0.078125, 0, -0.265625, -0.015625, -0.390625, 0, 0, 0, -0.1875, 0.15625, -0.71875, 0.140625, 0, 0, -0.125, 0, 1.15625, 1.328125, 0.046875, -0.09375, -0.0625, 0.046875, 0.046875, -0.046875, 0.09375, 0.0625, -0.03125, 0, 0.859375, -0.046875, 0.96875, 0.03125, -0.140625, 0, -0.015625, 0, -0.03125, -0.0625, 0, 0, 0, 0, 0.03125, -0.046875, -0.03125, 0, 0, 0, -0.625, -1.453125, 0.3125, 0.125, 0, -0.09375, -1.8125, 0, -1.890625, 0.328125, -0.15625 }
};

const weights_l1_t biases_layer_1[2][28] = {
    { 5.484375, -2.6875, -0.0625, -1.4375, -0.65625, 0.1875, -1.546875, -3.765625, 1.625, 0.828125, 0.34375, 0.296875, 0.5, -1.90625, -0.4375, 0.109375, -0.5625, -3.21875, 1.921875, -1.921875, 1.40625, -0.125, -0.140625, 2.21875, 0.265625, -0.25, -0.671875, 2.375 },
    { 5.484375, -2.6875, -0.0625, -1.4375, -0.65625, 0.1875, -1.546875, -3.765625, 1.625, 0.828125, 0.34375, 0.296875, 0.5, -1.90625, -0.4375, 0.109375, -0.5625, -3.21875, 1.921875, -1.921875, 1.40625, -0.125, -0.140625, 2.21875, 0.265625, -0.25, -0.671875, 2.375 }
};


const weights_l2_t weights_layer_2[2][28*24] = {
    { 0.015625, 0.15625, 0.25, -0.203125, 0.015625, 0, 0, 0, 0.28125, -0.09375, -0.0625, 0.84375, 0.40625, 0, 0.171875, -0.140625, -0.4375, 0.0625, -0.0625, 0.0625, 0.171875, -0.1875, -0.328125, 0.0625, -0.265625, 0.140625, -0.140625, 0.46875, 0, 0.140625, -0.078125, 0.65625, -0.140625, 0.0625, -0.375, -0.125, 0.015625, 0.453125, 0, 0.5, 0.515625, 0.171875, 0.265625, 0.125, 0.4375, -0.09375, 0.046875, -0.1875, -0.171875, 0.078125, 0, -0.15625, 0.4375, -0.40625, 0, 0.03125, -0.34375, 0, -0.59375, 0.765625, -0.359375, 1.078125, -0.65625, -0.359375, -1.703125, 0.75, 0, 1.484375, -1.015625, 0.515625, 0.234375, 0.78125, 0.28125, 0, 1.03125, -0.71875, 0, 0.59375, 2, 0.875, 0.296875, -0.671875, 0.28125, -0.796875, -0.40625, -0.21875, 0, -0.765625, -0.421875, 1.140625, 0.1875, -0.984375, 0, 0, 0.328125, -0.875, -0.859375, 1.109375, 2.5, -0.5, -0.65625, 0.4375, -2.78125, -0.28125, -1.09375, 0, -1.703125, 1.140625, -0.578125, -0.21875, -0.734375, -0.1875, -0.09375, -0.15625, -0.5, -0.625, 0, -0.375, -0.25, -0.171875, -0.25, -0.234375, -0.359375, -1.078125, -0.0625, 0, 0.59375, 0.296875, 0.953125, 0.09375, -1.796875, 0, -0.3125, 0.21875, 0, -0.40625, -0.1875, -0.59375, 0.421875, 0.796875, 0.1875, 0.234375, -0.28125, -0.53125, 0, 0, -0.46875, 0.328125, 0.375, -0.015625, -0.421875, -1, 0.40625, -0.25, -0.296875, -1.21875, 0.15625, -0.1875, 0.1875, 0.296875, -0.046875, 0, -0.609375, 0.25, -0.5, -0.171875, 0.0625, 0, -0.171875, 0, 1.046875, -0.640625, -0.15625, 0.453125, 0.3125, -0.1875, -0.703125, 0.5, 0.28125, 0.125, 0, 0.234375, 0.84375, -2.234375, 0.234375, 0.265625, 0, -0.296875, 0.359375, -0.5, 0.84375, -0.546875, 0.3125, -0.625, -0.359375, 0, 0, 0.203125, -0.46875, -0.265625, 0.140625, -0.1875, 0.25, 0.109375, 0.625, -0.078125, -0.09375, 0.734375, 1.28125, 0, 0.578125, -1.609375, -0.578125, 0.53125, 0.28125, 0.203125, 0.3125, -0.078125, -1, -0.53125, 0, 0, -0.140625, -1.109375, 0, 0, -0.15625, 0.96875, 0.125, -0.296875, 0.4375, 0, 0.921875, -0.484375, -0.078125, -0.203125, -0.1875, -0.171875, -0.375, -0.25, 0.265625, -0.203125, -0.140625, 0.28125, 0.09375, -0.34375, 0, -0.5, -0.5, 0.0625, 0.140625, -0.34375, 0.0625, 0, 0.375, -0.984375, -0.109375, -0.328125, 0.203125, 0, 0.875, -0.390625, 0, -0.65625, 0.8125, -0.109375, -0.328125, -0.59375, 0, -0.84375, -0.125, 0.734375, -0.3125, -0.390625, 0.265625, -1.5, -0.46875, -0.953125, 0.09375, 0.5, -0.390625, -0.59375, -2.09375, -1.375, -0.328125, 0.609375, -0.96875, -0.609375, -0.8125, 0, 0, -0.78125, 0, 0.5625, 0.859375, 0.9375, -0.875, 0.359375, -2.03125, -0.671875, -0.71875, 0.375, 0, 1.609375, 0.15625, -2.015625, -0.453125, 2.078125, -0.359375, -0.1875, -0.3125, -0.671875, -0.21875, -0.109375, 0, -0.328125, -0.40625, 0.15625, 0.703125, 1.734375, -0.203125, 0.203125, 0.21875, 0, -0.03125, 0.03125, 0, 0, 0.09375, 0.140625, 1.71875, -0.515625, -0.15625, -0.359375, -0.375, -0.6875, 0, -0.125, 0.171875, 0, 0, -0.140625, -0.203125, 0, -0.0625, -0.25, -0.09375, 0.171875, 0.046875, 0.078125, 0.046875, 0.421875, 0.15625, 0.625, -0.53125, -0.0625, -0.34375, 0.359375, -1.03125, -0.1875, 0.234375, 0.3125, 0.046875, -0.28125, 0.734375, 0, -0.96875, -1.140625, -0.5625, 3.515625, -0.484375, 0.15625, -0.234375, 0.390625, 1.6875, -0.484375, -1.5625, 0, -0.453125, -0.78125, 0, 0.921875, -1.375, 1.09375, 1.21875, -0.453125, 1.640625, -2.84375, 0.015625, -2.15625, 0, 1.421875, -0.046875, -0.25, 0.203125, -0.6875, 0, -0.03125, 0.578125, -0.171875, -0.140625, -0.015625, 0.3125, 0.03125, -0.453125, 0.125, 0.375, -0.25, 0.203125, 0, 1.015625, 0, 0.15625, 0, 0.390625, -0.375, -0.15625, 0.921875, 0.390625, -0.3125, 0.328125, 0.15625, -0.21875, 0.53125, 0.5, -1.59375, -0.25, 1, 1.3125, -0.78125, 0, -0.75, -0.125, -0.671875, -0.71875, 0, -1.03125, 0, -1.921875, 0.296875, -0.328125, -0.21875, -0.140625, 0, -0.265625, 0.625, -0.328125, -0.46875, 0, -0.140625, -0.796875, 0.5, -0.09375, -0.265625, 0.59375, -0.40625, 0.359375, 0, 0.609375, -0.5625, -1.328125, 0.40625, 1.109375, 1.8125, -1.09375, 0.296875, 0.109375, 0, 1.53125, -0.703125, -0.078125, 0.046875, 0, 0.53125, 0.125, -0.4375, -0.109375, 0, 0, 0.25, -0.046875, -0.90625, -0.109375, 0.1875, -0.3125, 0.453125, -0.171875, -0.3125, -0.296875, 0, -0.25, 0.765625, -1.625, -0.15625, 0.296875, -0.078125, -0.21875, 0.390625, 0.125, -0.546875, 0.578125, 0, 0.171875, -0.25, 0.265625, 0.3125, -0.5625, -0.546875, 0.625, 0, 0.375, 0.609375, -0.5625, -0.5625, 0.34375, 0.625, -0.65625, -0.65625, -0.953125, 0.9375, 0.609375, -0.6875, 2.359375, 0, 0, -0.546875, -1.015625, 0, -0.265625, 1.09375, 0.65625, 2.1875, -0.359375, -0.390625, -0.4375, -0.703125, -0.125, 0.25, 0.5, -0.59375, -0.21875, -0.421875, 0, -1.5, 0.109375, 0.359375, 0.3125, -0.234375, 0.078125, 0, 0.046875, 0.046875, 0.59375, 0, 0, -0.296875, 0.296875, 0.375, 0.1875, -0.046875, 0.21875, 0.34375, 0, -1.421875, 0.375, -1.3125, 0.3125, 0.28125, -0.953125, -0.703125, -0.1875, 0.0625, 1.0625, -0.21875, -0.4375, -1.15625, 0, -0.859375, 0, 0.734375, -1.609375, 0, -1.1875, -0.125, -0.34375, -1.078125, -0.15625, -0.140625, -0.015625, -0.203125, 0.140625, -0.609375, 0.046875, 0.59375, 0, 0, -0.984375, -0.015625, -0.09375, 0.171875, -0.125, -0.109375, -0.1875, 0, 0, 0.40625, -0.46875, -0.15625, 0.234375, 0.25, 1.03125, 0.796875, 0.171875, 0.046875, -0.234375, 0.78125, -0.53125, 0.203125, 0, 0.0625, -0.46875, 0.296875, -0.15625, -0.515625, 1.171875, 1.0625, 0.515625, -0.015625, 1.3125, 0.484375, 2.328125, -0.53125, 0.484375, 0, -0.625, -0.3125, -2.25, 0.140625, -1.828125, 1.90625, 0, 0, -0.125, 0.390625, 0, 0, -0.390625, 0.8125, -0.453125, 0.78125, -0.9375, -0.265625, -1.6875, 0.78125, 0.359375, -0.34375, -0.6875, 0.46875, 0.609375, 1.203125, 0.84375, 0, 0.3125, -0.328125, -1.421875, 1.328125, -0.5, -0.515625, 0.484375, -0.734375, 0, 0.53125 },
    { 0.015625, 0.15625, 0.25, -0.203125, 0.015625, 0, 0, 0, 0.28125, -0.09375, -0.0625, 0.84375, 0.40625, 0, 0.171875, -0.140625, -0.4375, 0.0625, -0.0625, 0.0625, 0.171875, -0.1875, -0.328125, 0.0625, -0.265625, 0.140625, -0.140625, 0.46875, 0, 0.140625, -0.078125, 0.65625, -0.140625, 0.0625, -0.375, -0.125, 0.015625, 0.453125, 0, 0.5, 0.515625, 0.171875, 0.265625, 0.125, 0.4375, -0.09375, 0.046875, -0.1875, -0.171875, 0.078125, 0, -0.15625, 0.4375, -0.40625, 0, 0.03125, -0.34375, 0, -0.59375, 0.765625, -0.359375, 1.078125, -0.65625, -0.359375, -1.703125, 0.75, 0, 1.484375, -1.015625, 0.515625, 0.234375, 0.78125, 0.28125, 0, 1.03125, -0.71875, 0, 0.59375, 2, 0.875, 0.296875, -0.671875, 0.28125, -0.796875, -0.40625, -0.21875, 0, -0.765625, -0.421875, 1.140625, 0.1875, -0.984375, 0, 0, 0.328125, -0.875, -0.859375, 1.109375, 2.5, -0.5, -0.65625, 0.4375, -2.78125, -0.28125, -1.09375, 0, -1.703125, 1.140625, -0.578125, -0.21875, -0.734375, -0.1875, -0.09375, -0.15625, -0.5, -0.625, 0, -0.375, -0.25, -0.171875, -0.25, -0.234375, -0.359375, -1.078125, -0.0625, 0, 0.59375, 0.296875, 0.953125, 0.09375, -1.796875, 0, -0.3125, 0.21875, 0, -0.40625, -0.1875, -0.59375, 0.421875, 0.796875, 0.1875, 0.234375, -0.28125, -0.53125, 0, 0, -0.46875, 0.328125, 0.375, -0.015625, -0.421875, -1, 0.40625, -0.25, -0.296875, -1.21875, 0.15625, -0.1875, 0.1875, 0.296875, -0.046875, 0, -0.609375, 0.25, -0.5, -0.171875, 0.0625, 0, -0.171875, 0, 1.046875, -0.640625, -0.15625, 0.453125, 0.3125, -0.1875, -0.703125, 0.5, 0.28125, 0.125, 0, 0.234375, 0.84375, -2.234375, 0.234375, 0.265625, 0, -0.296875, 0.359375, -0.5, 0.84375, -0.546875, 0.3125, -0.625, -0.359375, 0, 0, 0.203125, -0.46875, -0.265625, 0.140625, -0.1875, 0.25, 0.109375, 0.625, -0.078125, -0.09375, 0.734375, 1.28125, 0, 0.578125, -1.609375, -0.578125, 0.53125, 0.28125, 0.203125, 0.3125, -0.078125, -1, -0.53125, 0, 0, -0.140625, -1.109375, 0, 0, -0.15625, 0.96875, 0.125, -0.296875, 0.4375, 0, 0.921875, -0.484375, -0.078125, -0.203125, -0.1875, -0.171875, -0.375, -0.25, 0.265625, -0.203125, -0.140625, 0.28125, 0.09375, -0.34375, 0, -0.5, -0.5, 0.0625, 0.140625, -0.34375, 0.0625, 0, 0.375, -0.984375, -0.109375, -0.328125, 0.203125, 0, 0.875, -0.390625, 0, -0.65625, 0.8125, -0.109375, -0.328125, -0.59375, 0, -0.84375, -0.125, 0.734375, -0.3125, -0.390625, 0.265625, -1.5, -0.46875, -0.953125, 0.09375, 0.5, -0.390625, -0.59375, -2.09375, -1.375, -0.328125, 0.609375, -0.96875, -0.609375, -0.8125, 0, 0, -0.78125, 0, 0.5625, 0.859375, 0.9375, -0.875, 0.359375, -2.03125, -0.671875, -0.71875, 0.375, 0, 1.609375, 0.15625, -2.015625, -0.453125, 2.078125, -0.359375, -0.1875, -0.3125, -0.671875, -0.21875, -0.109375, 0, -0.328125, -0.40625, 0.15625, 0.703125, 1.734375, -0.203125, 0.203125, 0.21875, 0, -0.03125, 0.03125, 0, 0, 0.09375, 0.140625, 1.71875, -0.515625, -0.15625, -0.359375, -0.375, -0.6875, 0, -0.125, 0.171875, 0, 0, -0.140625, -0.203125, 0, -0.0625, -0.25, -0.09375, 0.171875, 0.046875, 0.078125, 0.046875, 0.421875, 0.15625, 0.625, -0.53125, -0.0625, -0.34375, 0.359375, -1.03125, -0.1875, 0.234375, 0.3125, 0.046875, -0.28125, 0.734375, 0, -0.96875, -1.140625, -0.5625, 3.515625, -0.484375, 0.15625, -0.234375, 0.390625, 1.6875, -0.484375, -1.5625, 0, -0.453125, -0.78125, 0, 0.921875, -1.375, 1.09375, 1.21875, -0.453125, 1.640625, -2.84375, 0.015625, -2.15625, 0, 1.421875, -0.046875, -0.25, 0.203125, -0.6875, 0, -0.03125, 0.578125, -0.171875, -0.140625, -0.015625, 0.3125, 0.03125, -0.453125, 0.125, 0.375, -0.25, 0.203125, 0, 1.015625, 0, 0.15625, 0, 0.390625, -0.375, -0.15625, 0.921875, 0.390625, -0.3125, 0.328125, 0.15625, -0.21875, 0.53125, 0.5, -1.59375, -0.25, 1, 1.3125, -0.78125, 0, -0.75, -0.125, -0.671875, -0.71875, 0, -1.03125, 0, -1.921875, 0.296875, -0.328125, -0.21875, -0.140625, 0, -0.265625, 0.625, -0.328125, -0.46875, 0, -0.140625, -0.796875, 0.5, -0.09375, -0.265625, 0.59375, -0.40625, 0.359375, 0, 0.609375, -0.5625, -1.328125, 0.40625, 1.109375, 1.8125, -1.09375, 0.296875, 0.109375, 0, 1.53125, -0.703125, -0.078125, 0.046875, 0, 0.53125, 0.125, -0.4375, -0.109375, 0, 0, 0.25, -0.046875, -0.90625, -0.109375, 0.1875, -0.3125, 0.453125, -0.171875, -0.3125, -0.296875, 0, -0.25, 0.765625, -1.625, -0.15625, 0.296875, -0.078125, -0.21875, 0.390625, 0.125, -0.546875, 0.578125, 0, 0.171875, -0.25, 0.265625, 0.3125, -0.5625, -0.546875, 0.625, 0, 0.375, 0.609375, -0.5625, -0.5625, 0.34375, 0.625, -0.65625, -0.65625, -0.953125, 0.9375, 0.609375, -0.6875, 2.359375, 0, 0, -0.546875, -1.015625, 0, -0.265625, 1.09375, 0.65625, 2.1875, -0.359375, -0.390625, -0.4375, -0.703125, -0.125, 0.25, 0.5, -0.59375, -0.21875, -0.421875, 0, -1.5, 0.109375, 0.359375, 0.3125, -0.234375, 0.078125, 0, 0.046875, 0.046875, 0.59375, 0, 0, -0.296875, 0.296875, 0.375, 0.1875, -0.046875, 0.21875, 0.34375, 0, -1.421875, 0.375, -1.3125, 0.3125, 0.28125, -0.953125, -0.703125, -0.1875, 0.0625, 1.0625, -0.21875, -0.4375, -1.15625, 0, -0.859375, 0, 0.734375, -1.609375, 0, -1.1875, -0.125, -0.34375, -1.078125, -0.15625, -0.140625, -0.015625, -0.203125, 0.140625, -0.609375, 0.046875, 0.59375, 0, 0, -0.984375, -0.015625, -0.09375, 0.171875, -0.125, -0.109375, -0.1875, 0, 0, 0.40625, -0.46875, -0.15625, 0.234375, 0.25, 1.03125, 0.796875, 0.171875, 0.046875, -0.234375, 0.78125, -0.53125, 0.203125, 0, 0.0625, -0.46875, 0.296875, -0.15625, -0.515625, 1.171875, 1.0625, 0.515625, -0.015625, 1.3125, 0.484375, 2.328125, -0.53125, 0.484375, 0, -0.625, -0.3125, -2.25, 0.140625, -1.828125, 1.90625, 0, 0, -0.125, 0.390625, 0, 0, -0.390625, 0.8125, -0.453125, 0.78125, -0.9375, -0.265625, -1.6875, 0.78125, 0.359375, -0.34375, -0.6875, 0.46875, 0.609375, 1.203125, 0.84375, 0, 0.3125, -0.328125, -1.421875, 1.328125, -0.5, -0.515625, 0.484375, -0.734375, 0, 0.53125 }
};


const weights_l2_t biases_layer_2[2][24] = {
    { -0.78125, 0.734375, -1.5, 3.015625, 0.59375, 0.515625, 3.90625, 3.125, 0.921875, 0.40625, -1.921875, 1.109375, 1.359375, 2.375, -0.25, -0.265625, -2.53125, 0.09375, -0.328125, 0.640625, 2.5625, 2.09375, 2.21875, -0.375 },
    { -0.78125, 0.734375, -1.5, 3.015625, 0.59375, 0.515625, 3.90625, 3.125, 0.921875, 0.40625, -1.921875, 1.109375, 1.359375, 2.375, -0.25, -0.265625, -2.53125, 0.09375, -0.328125, 0.640625, 2.5625, 2.09375, 2.21875, -0.375 }
};


const weights_l3_t weights_layer_3[2][24*16] = {
    { 1.640625, 0.96875, 0, 1.359375, -1.421875, -1.140625, -1.875, 1.84375, 4.359375, 3.203125, -0.40625, -2.578125, -2.015625, -0.546875, 0, 0.828125, 0, -0.6875, 0.5, -0.90625, 1.640625, 0.78125, 0, -1.625, 1.21875, 1.40625, 0, 0.84375, -1.578125, -1.359375, -1.28125, 1.125, 3.8125, 2.15625, 0, -1.609375, -1.796875, -0.421875, -0.734375, 1.5, 0, -0.65625, 0.640625, 0, 1.296875, 1.265625, -0.546875, -1.390625, 1.796875, 0.9375, 0.65625, 0.203125, -0.390625, 0, -1, 0, 2.234375, 0.484375, -0.34375, -0.578125, 0.1875, 0, 0.34375, 1.046875, 0.078125, 0, 0.34375, -0.09375, 0.875, -0.234375, 0.125, -1.109375, -1.046875, -0.59375, 0, -0.46875, 1.15625, 1.578125, 0, -0.5625, -3.453125, -1.765625, 0.6875, 0.96875, 1.046875, 0.84375, 1.28125, -1.609375, 0, 0.828125, -0.625, -0.671875, -0.921875, -1.53125, 0, 1.515625, -1.59375, -0.375, 0, -0.71875, 0, 2.546875, 0, -2.015625, -0.078125, -1.859375, -1.125, 1.734375, 1.5, 0.84375, 0.203125, -0.984375, 1.453125, 1.015625, 0.015625, 2.125, 0, -1.171875, 0.296875, 0.71875, 1.390625, 1.5, -0.84375, 0, 0.5, -1.3125, 0.609375, 2.109375, 2.8125, 1.546875, 0, -0.609375, -1.8125, -1.1875, 0, -0.0625, -0.453125, -0.984375, 0, -1.828125, 0.734375, 0.328125, -0.8125, -0.796875, 0.828125, 1.40625, 0.484375, 0.453125, -0.96875, -0.1875, -0.296875, 1, 1.59375, 0, -0.375, -0.921875, -0.578125, 0, -0.375, 0.53125, 1.15625, -0.484375, -0.625, -0.546875, 0, 1.3125, 0, -0.96875, 1.546875, 2.296875, 0, 0, 1.34375, -0.40625, -0.46875, 1.609375, 1.390625, 0.96875, -0.515625, 1.078125, 0, -0.46875, 2.46875, 0.6875, -0.9375, 0, 0.671875, -0.84375, 0.40625, 1.515625, -0.453125, -1.078125, 1.734375, 2.296875, 0.40625, 0, 1.765625, -1.625, 0, 0.78125, 2.296875, 0.765625, -0.578125, 0.65625, 0, -0.734375, 1.625, 0.453125, -1.046875, -0.84375, 0, -1.4375, 1.078125, 1.375, -0.515625, -0.4375, 2.90625, 1.046875, -0.703125, -0.796875, 1.109375, -0.859375, -0.53125, 1.234375, 0.359375, 0.359375, -0.515625, -0.1875, -2.09375, 0, 1.90625, -0.265625, 0, -0.65625, 0.6875, -0.890625, 0, 0.0625, 0, 0.671875, 0.78125, 0.59375, -0.375, 0.4375, -0.421875, -1.328125, -1.25, 2.359375, 3.71875, 1.828125, -0.765625, -1.90625, -3.375, -0.71875, 0, 0, 0, -0.625, 0.5625, -1.1875, 1.484375, 0, 0.953125, -1.3125, -2.328125, -1.40625, 0.125, 0.1875, 0.34375, -0.828125, -0.296875, 0, -1.6875, 0, 0.453125, -0.625, -0.203125, 0, 0, 0.859375, 0.3125, -1.796875, -0.203125, -0.46875, 0.015625, -0.71875, 0, 0.46875, 3.375, 2.015625, -0.9375, 0, 0.953125, -1.34375, -1.21875, 2.125, 4.109375, 1.3125, -0.65625, -1.1875, -3.375, -0.625, 1.6875, -0.125, 0, -0.734375, 0, -1.703125, 1.296875, 0.59375, 0, -0.3125, -0.625, 0, 0.234375, 0.40625, 0, 1.09375, -1.15625, -2.359375, -3.09375, -0.921875, -0.484375, -0.0625, 2.046875, 0.296875, 0.671875, 0.921875, 0.90625, 0, -0.71875, 0.984375, -0.84375, 0, 0.484375, 0.6875, 3.015625, 0.765625, 2.1875, -0.484375, -0.453125, -0.390625, 0, 0.3125, 3.125, -2.25, 0.578125, -1.421875, 1.25, 0.28125, 0.890625, 0.4375, 0.125, 0.625, 0, 1.828125, 1.34375, 0.90625, 0, 0, 2.140625, 1.296875, 0, 0.21875, -0.375, 0, -0.421875, -0.984375, 2.21875, -1.15625, -0.84375, -0.1875, -0.3125, 0, 0, 1.21875, -0.265625, -1.359375, -0.765625, 1.1875, 0.9375, -0.609375, -0.34375, -0.609375 },
    { 1.640625, 0.96875, 0, 1.359375, -1.421875, -1.140625, -1.875, 1.84375, 4.359375, 3.203125, -0.40625, -2.578125, -2.015625, -0.546875, 0, 0.828125, 0, -0.6875, 0.5, -0.90625, 1.640625, 0.78125, 0, -1.625, 1.21875, 1.40625, 0, 0.84375, -1.578125, -1.359375, -1.28125, 1.125, 3.8125, 2.15625, 0, -1.609375, -1.796875, -0.421875, -0.734375, 1.5, 0, -0.65625, 0.640625, 0, 1.296875, 1.265625, -0.546875, -1.390625, 1.796875, 0.9375, 0.65625, 0.203125, -0.390625, 0, -1, 0, 2.234375, 0.484375, -0.34375, -0.578125, 0.1875, 0, 0.34375, 1.046875, 0.078125, 0, 0.34375, -0.09375, 0.875, -0.234375, 0.125, -1.109375, -1.046875, -0.59375, 0, -0.46875, 1.15625, 1.578125, 0, -0.5625, -3.453125, -1.765625, 0.6875, 0.96875, 1.046875, 0.84375, 1.28125, -1.609375, 0, 0.828125, -0.625, -0.671875, -0.921875, -1.53125, 0, 1.515625, -1.59375, -0.375, 0, -0.71875, 0, 2.546875, 0, -2.015625, -0.078125, -1.859375, -1.125, 1.734375, 1.5, 0.84375, 0.203125, -0.984375, 1.453125, 1.015625, 0.015625, 2.125, 0, -1.171875, 0.296875, 0.71875, 1.390625, 1.5, -0.84375, 0, 0.5, -1.3125, 0.609375, 2.109375, 2.8125, 1.546875, 0, -0.609375, -1.8125, -1.1875, 0, -0.0625, -0.453125, -0.984375, 0, -1.828125, 0.734375, 0.328125, -0.8125, -0.796875, 0.828125, 1.40625, 0.484375, 0.453125, -0.96875, -0.1875, -0.296875, 1, 1.59375, 0, -0.375, -0.921875, -0.578125, 0, -0.375, 0.53125, 1.15625, -0.484375, -0.625, -0.546875, 0, 1.3125, 0, -0.96875, 1.546875, 2.296875, 0, 0, 1.34375, -0.40625, -0.46875, 1.609375, 1.390625, 0.96875, -0.515625, 1.078125, 0, -0.46875, 2.46875, 0.6875, -0.9375, 0, 0.671875, -0.84375, 0.40625, 1.515625, -0.453125, -1.078125, 1.734375, 2.296875, 0.40625, 0, 1.765625, -1.625, 0, 0.78125, 2.296875, 0.765625, -0.578125, 0.65625, 0, -0.734375, 1.625, 0.453125, -1.046875, -0.84375, 0, -1.4375, 1.078125, 1.375, -0.515625, -0.4375, 2.90625, 1.046875, -0.703125, -0.796875, 1.109375, -0.859375, -0.53125, 1.234375, 0.359375, 0.359375, -0.515625, -0.1875, -2.09375, 0, 1.90625, -0.265625, 0, -0.65625, 0.6875, -0.890625, 0, 0.0625, 0, 0.671875, 0.78125, 0.59375, -0.375, 0.4375, -0.421875, -1.328125, -1.25, 2.359375, 3.71875, 1.828125, -0.765625, -1.90625, -3.375, -0.71875, 0, 0, 0, -0.625, 0.5625, -1.1875, 1.484375, 0, 0.953125, -1.3125, -2.328125, -1.40625, 0.125, 0.1875, 0.34375, -0.828125, -0.296875, 0, -1.6875, 0, 0.453125, -0.625, -0.203125, 0, 0, 0.859375, 0.3125, -1.796875, -0.203125, -0.46875, 0.015625, -0.71875, 0, 0.46875, 3.375, 2.015625, -0.9375, 0, 0.953125, -1.34375, -1.21875, 2.125, 4.109375, 1.3125, -0.65625, -1.1875, -3.375, -0.625, 1.6875, -0.125, 0, -0.734375, 0, -1.703125, 1.296875, 0.59375, 0, -0.3125, -0.625, 0, 0.234375, 0.40625, 0, 1.09375, -1.15625, -2.359375, -3.09375, -0.921875, -0.484375, -0.0625, 2.046875, 0.296875, 0.671875, 0.921875, 0.90625, 0, -0.71875, 0.984375, -0.84375, 0, 0.484375, 0.6875, 3.015625, 0.765625, 2.1875, -0.484375, -0.453125, -0.390625, 0, 0.3125, 3.125, -2.25, 0.578125, -1.421875, 1.25, 0.28125, 0.890625, 0.4375, 0.125, 0.625, 0, 1.828125, 1.34375, 0.90625, 0, 0, 2.140625, 1.296875, 0, 0.21875, -0.375, 0, -0.421875, -0.984375, 2.21875, -1.15625, -0.84375, -0.1875, -0.3125, 0, 0, 1.21875, -0.265625, -1.359375, -0.765625, 1.1875, 0.9375, -0.609375, -0.34375, -0.609375 }
};

const weights_l3_t biases_layer_3[2][16] = {
    { -1.421875, -1.25, 0.703125, 2.21875, -1.609375, -2.859375, 0.40625, -3.8125, -3.140625, 1.21875, -2.078125, 2.421875, -0.9375, 3.859375, -0.484375, 2.03125 },
    { -1.421875, -1.25, 0.703125, 2.21875, -1.609375, -2.859375, 0.40625, -3.8125, -3.140625, 1.21875, -2.078125, 2.421875, -0.9375, 3.859375, -0.484375, 2.03125 }
};


const weights_l4_t weights_layer_4[2][16*1] = {
    { 2.130859375, 2.25, 2.298828125, -1.677734375, -1.01171875, 2.2109375, 3.224609375, 1.921875, 1.626953125, 2.142578125, 1.875, -2.267578125, 2.087890625, -2.033203125, 0.966796875, 1.46484375 },
    { 2.130859375, 2.25, 2.298828125, -1.677734375, -1.01171875, 2.2109375, 3.224609375, 1.921875, 1.626953125, 2.142578125, 1.875, -2.267578125, 2.087890625, -2.033203125, 0.966796875, 1.46484375 }
};

const weights_l4_t biases_layer_4[2][1] = {
    {0},
    {0}
};



#endif  // __EMTF_HLSLIB_NNET_WEIGHTS_H__ not defined
